#ifndef SINE_MODEL_H
#define SINE_MODEL_H


unsigned int sine_model_len = 3232;
unsigned char sine_model[] = {
 0x1c, 0x00, 0x00, 0x00, 0x54, 0x46, 0x4c, 0x33, 0x14, 0x00, 0x20, 0x00,
  0x1c, 0x00, 0x18, 0x00, 0x14, 0x00, 0x10, 0x00, 0x0c, 0x00, 0x00, 0x00,
  0x08, 0x00, 0x04, 0x00, 0x14, 0x00, 0x00, 0x00, 0x1c, 0x00, 0x00, 0x00,
  0x98, 0x00, 0x00, 0x00, 0xf0, 0x00, 0x00, 0x00, 0x08, 0x07, 0x00, 0x00,
  0x18, 0x07, 0x00, 0x00, 0x4c, 0x0c, 0x00, 0x00, 0x03, 0x00, 0x00, 0x00,
  0x01, 0x00, 0x00, 0x00, 0x10, 0x00, 0x00, 0x00, 0x00, 0x00, 0x0a, 0x00,
  0x10, 0x00, 0x0c, 0x00, 0x08, 0x00, 0x04, 0x00, 0x0a, 0x00, 0x00, 0x00,
  0x0c, 0x00, 0x00, 0x00, 0x1c, 0x00, 0x00, 0x00, 0x3c, 0x00, 0x00, 0x00,
  0x0f, 0x00, 0x00, 0x00, 0x73, 0x65, 0x72, 0x76, 0x69, 0x6e, 0x67, 0x5f,
  0x64, 0x65, 0x66, 0x61, 0x75, 0x6c, 0x74, 0x00, 0x01, 0x00, 0x00, 0x00,
  0x04, 0x00, 0x00, 0x00, 0x90, 0xff, 0xff, 0xff, 0x09, 0x00, 0x00, 0x00,
  0x04, 0x00, 0x00, 0x00, 0x08, 0x00, 0x00, 0x00, 0x64, 0x65, 0x6e, 0x73,
  0x65, 0x5f, 0x31, 0x34, 0x00, 0x00, 0x00, 0x00, 0x01, 0x00, 0x00, 0x00,
  0x04, 0x00, 0x00, 0x00, 0x8a, 0xf9, 0xff, 0xff, 0x04, 0x00, 0x00, 0x00,
  0x0e, 0x00, 0x00, 0x00, 0x64, 0x65, 0x6e, 0x73, 0x65, 0x5f, 0x31, 0x32,
  0x5f, 0x69, 0x6e, 0x70, 0x75, 0x74, 0x00, 0x00, 0x02, 0x00, 0x00, 0x00,
  0x34, 0x00, 0x00, 0x00, 0x04, 0x00, 0x00, 0x00, 0xdc, 0xff, 0xff, 0xff,
  0x0c, 0x00, 0x00, 0x00, 0x04, 0x00, 0x00, 0x00, 0x13, 0x00, 0x00, 0x00,
  0x43, 0x4f, 0x4e, 0x56, 0x45, 0x52, 0x53, 0x49, 0x4f, 0x4e, 0x5f, 0x4d,
  0x45, 0x54, 0x41, 0x44, 0x41, 0x54, 0x41, 0x00, 0x08, 0x00, 0x0c, 0x00,
  0x08, 0x00, 0x04, 0x00, 0x08, 0x00, 0x00, 0x00, 0x0b, 0x00, 0x00, 0x00,
  0x04, 0x00, 0x00, 0x00, 0x13, 0x00, 0x00, 0x00, 0x6d, 0x69, 0x6e, 0x5f,
  0x72, 0x75, 0x6e, 0x74, 0x69, 0x6d, 0x65, 0x5f, 0x76, 0x65, 0x72, 0x73,
  0x69, 0x6f, 0x6e, 0x00, 0x0d, 0x00, 0x00, 0x00, 0x14, 0x06, 0x00, 0x00,
  0x0c, 0x06, 0x00, 0x00, 0xf8, 0x05, 0x00, 0x00, 0xa0, 0x05, 0x00, 0x00,
  0x50, 0x05, 0x00, 0x00, 0x00, 0x05, 0x00, 0x00, 0xf0, 0x00, 0x00, 0x00,
  0xa0, 0x00, 0x00, 0x00, 0x98, 0x00, 0x00, 0x00, 0x90, 0x00, 0x00, 0x00,
  0x88, 0x00, 0x00, 0x00, 0x68, 0x00, 0x00, 0x00, 0x04, 0x00, 0x00, 0x00,
  0x3a, 0xfa, 0xff, 0xff, 0x04, 0x00, 0x00, 0x00, 0x54, 0x00, 0x00, 0x00,
  0x0c, 0x00, 0x00, 0x00, 0x08, 0x00, 0x0e, 0x00, 0x08, 0x00, 0x04, 0x00,
  0x08, 0x00, 0x00, 0x00, 0x10, 0x00, 0x00, 0x00, 0x24, 0x00, 0x00, 0x00,
  0x00, 0x00, 0x06, 0x00, 0x08, 0x00, 0x04, 0x00, 0x06, 0x00, 0x00, 0x00,
  0x04, 0x00, 0x00, 0x00, 0x00, 0x00, 0x00, 0x00, 0x00, 0x00, 0x0a, 0x00,
  0x10, 0x00, 0x0c, 0x00, 0x08, 0x00, 0x04, 0x00, 0x0a, 0x00, 0x00, 0x00,
  0x02, 0x00, 0x00, 0x00, 0x02, 0x00, 0x00, 0x00, 0x04, 0x00, 0x00, 0x00,
  0x06, 0x00, 0x00, 0x00, 0x32, 0x2e, 0x31, 0x32, 0x2e, 0x30, 0x00, 0x00,
  0x9a, 0xfa, 0xff, 0xff, 0x04, 0x00, 0x00, 0x00, 0x10, 0x00, 0x00, 0x00,
  0x31, 0x2e, 0x35, 0x2e, 0x30, 0x00, 0x00, 0x00, 0x00, 0x00, 0x00, 0x00,
  0x00, 0x00, 0x00, 0x00, 0x88, 0xf5, 0xff, 0xff, 0x8c, 0xf5, 0xff, 0xff,
  0x90, 0xf5, 0xff, 0xff, 0xc2, 0xfa, 0xff, 0xff, 0x04, 0x00, 0x00, 0x00,
  0x40, 0x00, 0x00, 0x00, 0xb6, 0x04, 0xbe, 0xbd, 0x75, 0x3f, 0xc3, 0x3f,
  0xc3, 0xde, 0xf5, 0x3e, 0x0e, 0x1d, 0x9f, 0xbe, 0x00, 0x4a, 0xad, 0xba,
  0xca, 0xa4, 0xc2, 0x3f, 0xf3, 0xfb, 0xf0, 0xbe, 0x3b, 0x67, 0xd7, 0xbe,
  0x0f, 0x8c, 0x28, 0x3f, 0xa6, 0x7f, 0x5e, 0xbe, 0xe4, 0x97, 0xfe, 0xbd,
  0x24, 0x56, 0x83, 0xbd, 0x1c, 0xb9, 0x80, 0xbe, 0x26, 0x69, 0xaa, 0xbe,
  0x5e, 0x71, 0xec, 0x3e, 0x04, 0x75, 0x51, 0x3f, 0x0e, 0xfb, 0xff, 0xff,
  0x04, 0x00, 0x00, 0x00, 0x00, 0x04, 0x00, 0x00, 0x30, 0xd0, 0x92, 0x3c,
  0x1b, 0xa4, 0xa7, 0x3e, 0xd8, 0x29, 0x6a, 0xbd, 0x59, 0x96, 0xe4, 0xbd,
  0x17, 0xfd, 0xce, 0xbe, 0x74, 0x8e, 0xaa, 0xbd, 0x30, 0x08, 0xdc, 0xbe,
  0xf6, 0x11, 0x8a, 0xbe, 0x7c, 0x01, 0xe6, 0x3d, 0x57, 0x63, 0x14, 0x3e,
  0x50, 0x3d, 0x4f, 0xbd, 0xf8, 0xe5, 0x96, 0xbe, 0x40, 0xab, 0xb8, 0xbd,
  0x40, 0xe3, 0x13, 0xbe, 0xb0, 0x13, 0xe1, 0x3c, 0xe2, 0x55, 0x2f, 0xbe,
  0xee, 0x7e, 0x61, 0x3e, 0x00, 0xdf, 0xe1, 0xba, 0x12, 0x24, 0x8d, 0xbe,
  0x75, 0x1b, 0x03, 0x3f, 0x70, 0x99, 0x52, 0xbe, 0xe9, 0x25, 0x88, 0xbf,
  0x3e, 0xca, 0xf1, 0xbe, 0xbd, 0x2f, 0xa3, 0x3e, 0xf5, 0x76, 0xa9, 0x3e,
  0xda, 0x9f, 0xc1, 0x3e, 0x81, 0xdc, 0x27, 0x3f, 0xa0, 0x85, 0xcf, 0xbf,
  0xc6, 0x09, 0xe6, 0x3d, 0x08, 0xfe, 0x3d, 0xbd, 0xfc, 0x09, 0xcb, 0xbd,
  0x6c, 0x51, 0xae, 0x3d, 0x07, 0xb2, 0xd3, 0xbe, 0xa6, 0xf1, 0x9c, 0xbe,
  0x40, 0x80, 0x2d, 0x3c, 0x9a, 0x24, 0xe3, 0xbc, 0x0d, 0x8d, 0xa0, 0x3e,
  0xde, 0xa4, 0x0c, 0x3f, 0x19, 0x23, 0xc1, 0x3d, 0x98, 0x55, 0x94, 0xbd,
  0x60, 0x28, 0x15, 0x3c, 0x60, 0x91, 0x1a, 0xbd, 0x1d, 0x3e, 0x4d, 0xbe,
  0x08, 0xef, 0x29, 0x3f, 0xe8, 0xcd, 0xef, 0x3e, 0xd8, 0x07, 0x4c, 0xbd,
  0x5e, 0x18, 0x02, 0x3e, 0x0c, 0xed, 0x94, 0x3d, 0xa2, 0xa2, 0x7d, 0x3e,
  0x8c, 0xaf, 0xdc, 0xbe, 0x57, 0xa4, 0x4f, 0xbe, 0xdd, 0x65, 0x8f, 0xbc,
  0xc4, 0x73, 0xec, 0xbd, 0xec, 0x32, 0xc1, 0x3d, 0x1c, 0x5b, 0xd1, 0x3e,
  0xc7, 0x96, 0x97, 0x3e, 0x65, 0x30, 0xa9, 0x3e, 0x91, 0x74, 0x47, 0x3e,
  0x34, 0xf7, 0xa2, 0xbe, 0x21, 0x6b, 0xc6, 0xbe, 0x9a, 0xe8, 0x65, 0x3e,
  0x84, 0xf2, 0xcf, 0x3d, 0xeb, 0x1b, 0xb6, 0x3e, 0x9b, 0x59, 0x9e, 0xbe,
  0x28, 0x92, 0xf9, 0xbd, 0x54, 0xfc, 0xea, 0x3d, 0x54, 0x22, 0xed, 0x3d,
  0x49, 0x69, 0xbf, 0xbe, 0x06, 0x85, 0xaa, 0xbe, 0x0c, 0x4a, 0xe7, 0xbd,
  0xfa, 0x18, 0x41, 0x3e, 0x40, 0xea, 0x1c, 0x3d, 0xc4, 0x0a, 0xc4, 0x3d,
  0x51, 0x0b, 0xb6, 0xbe, 0xc7, 0xb0, 0x3d, 0xbe, 0x77, 0xe0, 0x40, 0xbe,
  0x2f, 0x6d, 0x8e, 0xbe, 0x55, 0xa8, 0x4a, 0xbe, 0xf6, 0xde, 0x9e, 0xbe,
  0x80, 0xf8, 0x73, 0xbc, 0xe8, 0xb3, 0x9c, 0xbe, 0x6a, 0x87, 0x99, 0xbe,
  0xeb, 0xeb, 0x60, 0xbe, 0xbb, 0x12, 0x4f, 0x3e, 0x0c, 0x87, 0xa1, 0xbe,
  0x9d, 0xfb, 0xaa, 0x3e, 0x95, 0x2c, 0xf3, 0x3e, 0xbb, 0x10, 0xb6, 0x3e,
  0x80, 0x70, 0x5b, 0xbc, 0x31, 0x14, 0x0a, 0xbe, 0xbc, 0x45, 0xd6, 0xbe,
  0x43, 0x3e, 0x14, 0x3e, 0xd7, 0x39, 0xb8, 0xbe, 0x00, 0xce, 0x60, 0xbd,
  0xf6, 0x77, 0xa9, 0xbe, 0xdf, 0xf9, 0x9b, 0x3e, 0x4a, 0x16, 0xb1, 0xbe,
  0x40, 0x0d, 0x49, 0xbc, 0x6a, 0x6f, 0x2a, 0xbe, 0x31, 0xcd, 0x71, 0xbe,
  0xca, 0x5c, 0x45, 0xbe, 0x73, 0x88, 0x88, 0xbe, 0x28, 0x3a, 0x63, 0xbb,
  0xb4, 0xb6, 0xc3, 0xbd, 0x41, 0x27, 0xcf, 0x3e, 0xc7, 0x17, 0xeb, 0x3e,
  0x61, 0x11, 0xa8, 0x3e, 0xa7, 0xfd, 0xce, 0xbe, 0x17, 0xaf, 0xab, 0x3e,
  0x5b, 0xfa, 0xbc, 0xbe, 0xdb, 0xcb, 0xc8, 0xbe, 0xba, 0xd3, 0x50, 0x3e,
  0xb7, 0xf6, 0xd0, 0x3e, 0x00, 0xc0, 0x0c, 0x38, 0x8f, 0x5b, 0xb8, 0x3e,
  0x51, 0xa4, 0xf9, 0x3e, 0x73, 0x9d, 0xcc, 0xbe, 0x76, 0x7d, 0xf9, 0xbd,
  0xee, 0xcf, 0x94, 0x3e, 0x2e, 0xfc, 0x92, 0xbe, 0xb2, 0xbf, 0xc6, 0xbe,
  0x76, 0x71, 0x86, 0xbe, 0x7d, 0x71, 0x12, 0xbd, 0xe3, 0x28, 0xa2, 0x3c,
  0xe5, 0x19, 0xcf, 0xbd, 0x1c, 0xad, 0xb6, 0x3d, 0xf4, 0x0e, 0x4f, 0xbe,
  0x47, 0x83, 0xce, 0x3e, 0x0c, 0x05, 0x07, 0xbe, 0x90, 0xc9, 0x0a, 0x3d,
  0x5d, 0xd0, 0x84, 0x3e, 0x4b, 0x98, 0xd1, 0x3e, 0x06, 0x7a, 0x3d, 0x3e,
  0x4c, 0xe1, 0x94, 0xbe, 0xd0, 0x83, 0xbc, 0xbe, 0x60, 0xf0, 0xd4, 0x3c,
  0x0a, 0xa4, 0x3c, 0xbe, 0xb6, 0xcd, 0x77, 0x3e, 0x82, 0xa6, 0x1d, 0x3e,
  0x5d, 0x33, 0xc2, 0xbe, 0x58, 0xc5, 0xd8, 0xbe, 0xd0, 0x8f, 0x9a, 0xbc,
  0xc4, 0x45, 0xfe, 0xbd, 0x28, 0xa7, 0x34, 0xbd, 0xcf, 0xba, 0x97, 0xbe,
  0xd2, 0x9f, 0x5f, 0x3e, 0xb8, 0x75, 0x2a, 0xbe, 0x37, 0xa0, 0x57, 0x3d,
  0x97, 0x71, 0x60, 0xbe, 0x34, 0x83, 0xe8, 0x3d, 0xb3, 0x71, 0xd5, 0x3e,
  0xa9, 0x25, 0xa1, 0x3e, 0xaa, 0xed, 0xaf, 0xbe, 0xa3, 0x2b, 0x4c, 0x3e,
  0x8f, 0x91, 0xb7, 0x3e, 0xc0, 0xa3, 0xf2, 0xbe, 0xa2, 0xd0, 0xea, 0xbd,
  0x0b, 0xcc, 0xc7, 0x3e, 0x1b, 0x5e, 0x90, 0x3e, 0x24, 0xcb, 0x1c, 0xbe,
  0x20, 0x95, 0x42, 0x3d, 0xc0, 0x5e, 0x25, 0xbc, 0x10, 0x31, 0x81, 0xbc,
  0x81, 0x76, 0xc1, 0xbe, 0xc0, 0x9b, 0x26, 0x3d, 0x60, 0x9e, 0x26, 0xbc,
  0x90, 0x74, 0x71, 0xbe, 0x00, 0x61, 0x08, 0x3b, 0xcb, 0xdc, 0xab, 0x3e,
  0x58, 0x27, 0x0a, 0xbe, 0x28, 0x4a, 0x9c, 0xbd, 0x1b, 0xc8, 0xc2, 0xbe,
  0x2d, 0x5c, 0xd7, 0xbe, 0x60, 0x42, 0xfa, 0x3c, 0x34, 0xab, 0x9c, 0xbe,
  0xe5, 0x39, 0xd3, 0xbe, 0x31, 0x21, 0xca, 0xbe, 0xba, 0x38, 0x10, 0x3e,
  0xaa, 0x37, 0xcc, 0xbe, 0xaf, 0xd9, 0xb1, 0xbe, 0x04, 0x8f, 0xb3, 0xbe,
  0xda, 0x1b, 0xf6, 0xbd, 0x14, 0x6d, 0xf6, 0xbd, 0x40, 0xa0, 0xc5, 0x3b,
  0xa4, 0xd7, 0xcd, 0x3d, 0xb2, 0xe0, 0x84, 0xbe, 0xde, 0x0b, 0x0a, 0x3e,
  0x82, 0xf5, 0x82, 0xbe, 0x77, 0x2e, 0xcb, 0x3d, 0xc0, 0x69, 0x32, 0x3c,
  0xf0, 0xef, 0x41, 0x3d, 0xb0, 0xbb, 0x36, 0xbe, 0x03, 0x1e, 0xab, 0x3e,
  0xc4, 0xbb, 0x9e, 0xbe, 0x15, 0x36, 0xad, 0xbe, 0x48, 0x3b, 0x69, 0x3e,
  0xeb, 0x54, 0x83, 0xbe, 0x8c, 0xd0, 0x9a, 0xbe, 0x9c, 0xa4, 0xae, 0x3e,
  0x1b, 0xa6, 0xd8, 0x3e, 0x78, 0x47, 0x57, 0xbd, 0x58, 0x59, 0xf3, 0xbd,
  0x29, 0x0d, 0x93, 0x3e, 0xdf, 0x38, 0x1b, 0xbf, 0x1f, 0x6a, 0x3b, 0x3c,
  0xfd, 0x6e, 0x85, 0x3e, 0x4c, 0x46, 0xbd, 0x3d, 0x00, 0x87, 0xd1, 0xbc,
  0xb5, 0x1e, 0xc0, 0x3e, 0x77, 0xab, 0xda, 0x3e, 0xa1, 0x5e, 0xc0, 0xbe,
  0x4e, 0x29, 0x9d, 0xbe, 0x82, 0xb0, 0x6a, 0x3e, 0x0b, 0x95, 0xa2, 0x3e,
  0xba, 0x7b, 0x14, 0x3e, 0x7d, 0x83, 0xa4, 0x3e, 0x87, 0x63, 0x94, 0xbe,
  0x47, 0xa1, 0x7d, 0xbe, 0x24, 0xc9, 0xc1, 0xbe, 0xf4, 0x5e, 0xf9, 0x3d,
  0x70, 0xc3, 0xc0, 0xbc, 0x24, 0x2b, 0xf2, 0x3d, 0x1d, 0xc8, 0x93, 0x3e,
  0xfc, 0x6c, 0xa9, 0xbd, 0x00, 0xee, 0xc7, 0xba, 0x35, 0x06, 0x86, 0x3e,
  0x64, 0x52, 0xd1, 0xbe, 0xa0, 0x82, 0xb0, 0xbe, 0x80, 0xff, 0x06, 0x3d,
  0x05, 0x27, 0xa8, 0xbe, 0xdd, 0x05, 0xbe, 0x3e, 0x02, 0x4e, 0xdc, 0xbe,
  0x38, 0xd5, 0x5f, 0xbe, 0x73, 0x88, 0xc7, 0xbd, 0x9f, 0xa8, 0x3b, 0x3e,
  0x46, 0x59, 0x00, 0xbe, 0x62, 0x5e, 0x02, 0x3e, 0xd0, 0x60, 0xba, 0xbc,
  0x0a, 0x0d, 0x13, 0x3e, 0xa2, 0xc0, 0x06, 0x3e, 0xae, 0x12, 0x7e, 0x3e,
  0x37, 0xe8, 0xb0, 0x3e, 0xa1, 0x4a, 0xb9, 0x3e, 0xf3, 0xee, 0xc0, 0xbe,
  0x80, 0x0c, 0x93, 0xbe, 0xb2, 0xdb, 0x0d, 0x3f, 0xda, 0x7b, 0x82, 0x3e,
  0x68, 0x0e, 0x7a, 0xbe, 0x1b, 0x53, 0x7f, 0xbe, 0xeb, 0xc2, 0x42, 0xbe,
  0x55, 0xe4, 0x50, 0x3e, 0x89, 0xf4, 0xea, 0x3e, 0x13, 0xf5, 0xd9, 0x3e,
  0x48, 0x8c, 0x27, 0xbd, 0xc4, 0x2f, 0x83, 0x3d, 0xa7, 0xfc, 0x3e, 0xbe,
  0x1a, 0xff, 0xff, 0xff, 0x04, 0x00, 0x00, 0x00, 0x40, 0x00, 0x00, 0x00,
  0xa1, 0x25, 0x07, 0xbf, 0x06, 0xbc, 0x17, 0xbf, 0x12, 0x21, 0xbb, 0xbe,
  0xca, 0xac, 0x0b, 0x3f, 0xac, 0x8b, 0xe5, 0xbd, 0xa5, 0x84, 0xec, 0x3e,
  0xf8, 0x4d, 0x07, 0x3f, 0x23, 0x03, 0x9e, 0xbe, 0xf2, 0x80, 0x91, 0xbe,
  0xae, 0xb2, 0xd8, 0x3e, 0xdd, 0x31, 0xd8, 0x3d, 0x41, 0xec, 0x66, 0x3e,
  0x81, 0xc9, 0xd7, 0x3e, 0x2a, 0xdd, 0xfd, 0xbe, 0xf0, 0xd2, 0x23, 0xbd,
  0xc2, 0x47, 0x09, 0xbe, 0x66, 0xff, 0xff, 0xff, 0x04, 0x00, 0x00, 0x00,
  0x40, 0x00, 0x00, 0x00, 0x00, 0x00, 0x00, 0x00, 0x00, 0x00, 0x00, 0x00,
  0x00, 0x00, 0x00, 0x00, 0x93, 0x09, 0x38, 0x3e, 0x00, 0x00, 0x00, 0x00,
  0x3b, 0xf7, 0x68, 0xbf, 0x61, 0x1e, 0x22, 0xbf, 0x00, 0x00, 0x00, 0x00,
  0x00, 0x00, 0x00, 0x00, 0x3a, 0xd9, 0x75, 0x3e, 0x7b, 0x97, 0x94, 0x3e,
  0x2e, 0xef, 0x14, 0xbf, 0xb7, 0xeb, 0x96, 0xbe, 0x00, 0x00, 0x00, 0x00,
  0x00, 0x00, 0x00, 0x00, 0x00, 0x00, 0x00, 0x00, 0xb2, 0xff, 0xff, 0xff,
  0x04, 0x00, 0x00, 0x00, 0x40, 0x00, 0x00, 0x00, 0x32, 0xf5, 0x0c, 0xbb,
  0xc6, 0xd0, 0x7f, 0x3e, 0xf6, 0x73, 0x97, 0xbe, 0xc3, 0x0f, 0x55, 0x3c,
  0x00, 0x00, 0x00, 0x00, 0xf6, 0xf7, 0x17, 0xbf, 0x40, 0x0b, 0xed, 0x3d,
  0x8d, 0x3b, 0x28, 0x3e, 0x2c, 0x0a, 0x9b, 0x3c, 0xf3, 0x06, 0x1a, 0x3e,
  0x00, 0x00, 0x00, 0x00, 0x5c, 0xa5, 0x54, 0xbb, 0xd2, 0x94, 0xee, 0x3d,
  0x00, 0x00, 0x00, 0x00, 0xbc, 0x58, 0xbb, 0xbb, 0x3b, 0x0c, 0xe0, 0xbe,
  0x00, 0x00, 0x06, 0x00, 0x08, 0x00, 0x04, 0x00, 0x06, 0x00, 0x00, 0x00,
  0x04, 0x00, 0x00, 0x00, 0x04, 0x00, 0x00, 0x00, 0x13, 0x3e, 0x3a, 0xbf,
  0xe8, 0xfa, 0xff, 0xff, 0xec, 0xfa, 0xff, 0xff, 0x0f, 0x00, 0x00, 0x00,
  0x4d, 0x4c, 0x49, 0x52, 0x20, 0x43, 0x6f, 0x6e, 0x76, 0x65, 0x72, 0x74,
  0x65, 0x64, 0x2e, 0x00, 0x01, 0x00, 0x00, 0x00, 0x14, 0x00, 0x00, 0x00,
  0x00, 0x00, 0x0e, 0x00, 0x18, 0x00, 0x14, 0x00, 0x10, 0x00, 0x0c, 0x00,
  0x08, 0x00, 0x04, 0x00, 0x0e, 0x00, 0x00, 0x00, 0x14, 0x00, 0x00, 0x00,
  0x1c, 0x00, 0x00, 0x00, 0xd8, 0x00, 0x00, 0x00, 0xdc, 0x00, 0x00, 0x00,
  0xe0, 0x00, 0x00, 0x00, 0x04, 0x00, 0x00, 0x00, 0x6d, 0x61, 0x69, 0x6e,
  0x00, 0x00, 0x00, 0x00, 0x03, 0x00, 0x00, 0x00, 0x80, 0x00, 0x00, 0x00,
  0x38, 0x00, 0x00, 0x00, 0x04, 0x00, 0x00, 0x00, 0x9a, 0xff, 0xff, 0xff,
  0x10, 0x00, 0x00, 0x00, 0x00, 0x00, 0x00, 0x08, 0x0c, 0x00, 0x00, 0x00,
  0x10, 0x00, 0x00, 0x00, 0x64, 0xfb, 0xff, 0xff, 0x01, 0x00, 0x00, 0x00,
  0x09, 0x00, 0x00, 0x00, 0x03, 0x00, 0x00, 0x00, 0x08, 0x00, 0x00, 0x00,
  0x06, 0x00, 0x00, 0x00, 0x01, 0x00, 0x00, 0x00, 0xca, 0xff, 0xff, 0xff,
  0x10, 0x00, 0x00, 0x00, 0x00, 0x00, 0x00, 0x08, 0x10, 0x00, 0x00, 0x00,
  0x14, 0x00, 0x00, 0x00, 0xba, 0xff, 0xff, 0xff, 0x00, 0x00, 0x00, 0x01,
  0x01, 0x00, 0x00, 0x00, 0x08, 0x00, 0x00, 0x00, 0x03, 0x00, 0x00, 0x00,
  0x07, 0x00, 0x00, 0x00, 0x05, 0x00, 0x00, 0x00, 0x02, 0x00, 0x00, 0x00,
  0x00, 0x00, 0x0e, 0x00, 0x16, 0x00, 0x00, 0x00, 0x10, 0x00, 0x0c, 0x00,
  0x0b, 0x00, 0x04, 0x00, 0x0e, 0x00, 0x00, 0x00, 0x18, 0x00, 0x00, 0x00,
  0x00, 0x00, 0x00, 0x08, 0x18, 0x00, 0x00, 0x00, 0x1c, 0x00, 0x00, 0x00,
  0x00, 0x00, 0x06, 0x00, 0x08, 0x00, 0x07, 0x00, 0x06, 0x00, 0x00, 0x00,
  0x00, 0x00, 0x00, 0x01, 0x01, 0x00, 0x00, 0x00, 0x07, 0x00, 0x00, 0x00,
  0x03, 0x00, 0x00, 0x00, 0x00, 0x00, 0x00, 0x00, 0x04, 0x00, 0x00, 0x00,
  0x03, 0x00, 0x00, 0x00, 0x01, 0x00, 0x00, 0x00, 0x09, 0x00, 0x00, 0x00,
  0x01, 0x00, 0x00, 0x00, 0x00, 0x00, 0x00, 0x00, 0x0a, 0x00, 0x00, 0x00,
  0xc4, 0x03, 0x00, 0x00, 0x50, 0x03, 0x00, 0x00, 0xdc, 0x02, 0x00, 0x00,
  0x80, 0x02, 0x00, 0x00, 0x30, 0x02, 0x00, 0x00, 0xe0, 0x01, 0x00, 0x00,
  0x90, 0x01, 0x00, 0x00, 0xf8, 0x00, 0x00, 0x00, 0x60, 0x00, 0x00, 0x00,
  0x04, 0x00, 0x00, 0x00, 0x7a, 0xfc, 0xff, 0xff, 0x00, 0x00, 0x00, 0x01,
  0x14, 0x00, 0x00, 0x00, 0x1c, 0x00, 0x00, 0x00, 0x1c, 0x00, 0x00, 0x00,
  0x0a, 0x00, 0x00, 0x00, 0x34, 0x00, 0x00, 0x00, 0x02, 0x00, 0x00, 0x00,
  0xff, 0xff, 0xff, 0xff, 0x01, 0x00, 0x00, 0x00, 0x64, 0xfc, 0xff, 0xff,
  0x19, 0x00, 0x00, 0x00, 0x53, 0x74, 0x61, 0x74, 0x65, 0x66, 0x75, 0x6c,
  0x50, 0x61, 0x72, 0x74, 0x69, 0x74, 0x69, 0x6f, 0x6e, 0x65, 0x64, 0x43,
  0x61, 0x6c, 0x6c, 0x3a, 0x30, 0x00, 0x00, 0x00, 0x02, 0x00, 0x00, 0x00,
  0x01, 0x00, 0x00, 0x00, 0x01, 0x00, 0x00, 0x00, 0xd2, 0xfc, 0xff, 0xff,
  0x00, 0x00, 0x00, 0x01, 0x14, 0x00, 0x00, 0x00, 0x1c, 0x00, 0x00, 0x00,
  0x1c, 0x00, 0x00, 0x00, 0x09, 0x00, 0x00, 0x00, 0x70, 0x00, 0x00, 0x00,
  0x02, 0x00, 0x00, 0x00, 0xff, 0xff, 0xff, 0xff, 0x10, 0x00, 0x00, 0x00,
  0xbc, 0xfc, 0xff, 0xff, 0x55, 0x00, 0x00, 0x00, 0x73, 0x65, 0x71, 0x75,
  0x65, 0x6e, 0x74, 0x69, 0x61, 0x6c, 0x5f, 0x34, 0x2f, 0x64, 0x65, 0x6e,
  0x73, 0x65, 0x5f, 0x31, 0x33, 0x2f, 0x4d, 0x61, 0x74, 0x4d, 0x75, 0x6c,
  0x3b, 0x73, 0x65, 0x71, 0x75, 0x65, 0x6e, 0x74, 0x69, 0x61, 0x6c, 0x5f,
  0x34, 0x2f, 0x64, 0x65, 0x6e, 0x73, 0x65, 0x5f, 0x31, 0x33, 0x2f, 0x52,
  0x65, 0x6c, 0x75, 0x3b, 0x73, 0x65, 0x71, 0x75, 0x65, 0x6e, 0x74, 0x69,
  0x61, 0x6c, 0x5f, 0x34, 0x2f, 0x64, 0x65, 0x6e, 0x73, 0x65, 0x5f, 0x31,
  0x33, 0x2f, 0x42, 0x69, 0x61, 0x73, 0x41, 0x64, 0x64, 0x00, 0x00, 0x00,
  0x02, 0x00, 0x00, 0x00, 0x01, 0x00, 0x00, 0x00, 0x10, 0x00, 0x00, 0x00,
  0x66, 0xfd, 0xff, 0xff, 0x00, 0x00, 0x00, 0x01, 0x14, 0x00, 0x00, 0x00,
  0x1c, 0x00, 0x00, 0x00, 0x1c, 0x00, 0x00, 0x00, 0x08, 0x00, 0x00, 0x00,
  0x70, 0x00, 0x00, 0x00, 0x02, 0x00, 0x00, 0x00, 0xff, 0xff, 0xff, 0xff,
  0x10, 0x00, 0x00, 0x00, 0x50, 0xfd, 0xff, 0xff, 0x55, 0x00, 0x00, 0x00,
  0x73, 0x65, 0x71, 0x75, 0x65, 0x6e, 0x74, 0x69, 0x61, 0x6c, 0x5f, 0x34,
  0x2f, 0x64, 0x65, 0x6e, 0x73, 0x65, 0x5f, 0x31, 0x32, 0x2f, 0x4d, 0x61,
  0x74, 0x4d, 0x75, 0x6c, 0x3b, 0x73, 0x65, 0x71, 0x75, 0x65, 0x6e, 0x74,
  0x69, 0x61, 0x6c, 0x5f, 0x34, 0x2f, 0x64, 0x65, 0x6e, 0x73, 0x65, 0x5f,
  0x31, 0x32, 0x2f, 0x52, 0x65, 0x6c, 0x75, 0x3b, 0x73, 0x65, 0x71, 0x75,
  0x65, 0x6e, 0x74, 0x69, 0x61, 0x6c, 0x5f, 0x34, 0x2f, 0x64, 0x65, 0x6e,
  0x73, 0x65, 0x5f, 0x31, 0x32, 0x2f, 0x42, 0x69, 0x61, 0x73, 0x41, 0x64,
  0x64, 0x00, 0x00, 0x00, 0x02, 0x00, 0x00, 0x00, 0x01, 0x00, 0x00, 0x00,
  0x10, 0x00, 0x00, 0x00, 0x6a, 0xfe, 0xff, 0xff, 0x00, 0x00, 0x00, 0x01,
  0x10, 0x00, 0x00, 0x00, 0x10, 0x00, 0x00, 0x00, 0x07, 0x00, 0x00, 0x00,
  0x2c, 0x00, 0x00, 0x00, 0xd4, 0xfd, 0xff, 0xff, 0x1c, 0x00, 0x00, 0x00,
  0x73, 0x65, 0x71, 0x75, 0x65, 0x6e, 0x74, 0x69, 0x61, 0x6c, 0x5f, 0x34,
  0x2f, 0x64, 0x65, 0x6e, 0x73, 0x65, 0x5f, 0x31, 0x34, 0x2f, 0x4d, 0x61,
  0x74, 0x4d, 0x75, 0x6c, 0x00, 0x00, 0x00, 0x00, 0x02, 0x00, 0x00, 0x00,
  0x01, 0x00, 0x00, 0x00, 0x10, 0x00, 0x00, 0x00, 0xb6, 0xfe, 0xff, 0xff,
  0x00, 0x00, 0x00, 0x01, 0x10, 0x00, 0x00, 0x00, 0x10, 0x00, 0x00, 0x00,
  0x06, 0x00, 0x00, 0x00, 0x2c, 0x00, 0x00, 0x00, 0x20, 0xfe, 0xff, 0xff,
  0x1c, 0x00, 0x00, 0x00, 0x73, 0x65, 0x71, 0x75, 0x65, 0x6e, 0x74, 0x69,
  0x61, 0x6c, 0x5f, 0x34, 0x2f, 0x64, 0x65, 0x6e, 0x73, 0x65, 0x5f, 0x31,
  0x33, 0x2f, 0x4d, 0x61, 0x74, 0x4d, 0x75, 0x6c, 0x00, 0x00, 0x00, 0x00,
  0x02, 0x00, 0x00, 0x00, 0x10, 0x00, 0x00, 0x00, 0x10, 0x00, 0x00, 0x00,
  0x02, 0xff, 0xff, 0xff, 0x00, 0x00, 0x00, 0x01, 0x10, 0x00, 0x00, 0x00,
  0x10, 0x00, 0x00, 0x00, 0x05, 0x00, 0x00, 0x00, 0x2c, 0x00, 0x00, 0x00,
  0x6c, 0xfe, 0xff, 0xff, 0x1c, 0x00, 0x00, 0x00, 0x73, 0x65, 0x71, 0x75,
  0x65, 0x6e, 0x74, 0x69, 0x61, 0x6c, 0x5f, 0x34, 0x2f, 0x64, 0x65, 0x6e,
  0x73, 0x65, 0x5f, 0x31, 0x32, 0x2f, 0x4d, 0x61, 0x74, 0x4d, 0x75, 0x6c,
  0x00, 0x00, 0x00, 0x00, 0x02, 0x00, 0x00, 0x00, 0x10, 0x00, 0x00, 0x00,
  0x01, 0x00, 0x00, 0x00, 0x4e, 0xff, 0xff, 0xff, 0x00, 0x00, 0x00, 0x01,
  0x10, 0x00, 0x00, 0x00, 0x10, 0x00, 0x00, 0x00, 0x04, 0x00, 0x00, 0x00,
  0x3c, 0x00, 0x00, 0x00, 0xb8, 0xfe, 0xff, 0xff, 0x2c, 0x00, 0x00, 0x00,
  0x73, 0x65, 0x71, 0x75, 0x65, 0x6e, 0x74, 0x69, 0x61, 0x6c, 0x5f, 0x34,
  0x2f, 0x64, 0x65, 0x6e, 0x73, 0x65, 0x5f, 0x31, 0x32, 0x2f, 0x42, 0x69,
  0x61, 0x73, 0x41, 0x64, 0x64, 0x2f, 0x52, 0x65, 0x61, 0x64, 0x56, 0x61,
  0x72, 0x69, 0x61, 0x62, 0x6c, 0x65, 0x4f, 0x70, 0x00, 0x00, 0x00, 0x00,
  0x01, 0x00, 0x00, 0x00, 0x10, 0x00, 0x00, 0x00, 0xa6, 0xff, 0xff, 0xff,
  0x00, 0x00, 0x00, 0x01, 0x10, 0x00, 0x00, 0x00, 0x10, 0x00, 0x00, 0x00,
  0x03, 0x00, 0x00, 0x00, 0x3c, 0x00, 0x00, 0x00, 0x10, 0xff, 0xff, 0xff,
  0x2c, 0x00, 0x00, 0x00, 0x73, 0x65, 0x71, 0x75, 0x65, 0x6e, 0x74, 0x69,
  0x61, 0x6c, 0x5f, 0x34, 0x2f, 0x64, 0x65, 0x6e, 0x73, 0x65, 0x5f, 0x31,
  0x33, 0x2f, 0x42, 0x69, 0x61, 0x73, 0x41, 0x64, 0x64, 0x2f, 0x52, 0x65,
  0x61, 0x64, 0x56, 0x61, 0x72, 0x69, 0x61, 0x62, 0x6c, 0x65, 0x4f, 0x70,
  0x00, 0x00, 0x00, 0x00, 0x01, 0x00, 0x00, 0x00, 0x10, 0x00, 0x00, 0x00,
  0x00, 0x00, 0x16, 0x00, 0x18, 0x00, 0x14, 0x00, 0x00, 0x00, 0x10, 0x00,
  0x0c, 0x00, 0x08, 0x00, 0x00, 0x00, 0x00, 0x00, 0x00, 0x00, 0x07, 0x00,
  0x16, 0x00, 0x00, 0x00, 0x00, 0x00, 0x00, 0x01, 0x10, 0x00, 0x00, 0x00,
  0x10, 0x00, 0x00, 0x00, 0x02, 0x00, 0x00, 0x00, 0x3c, 0x00, 0x00, 0x00,
  0x80, 0xff, 0xff, 0xff, 0x2c, 0x00, 0x00, 0x00, 0x73, 0x65, 0x71, 0x75,
  0x65, 0x6e, 0x74, 0x69, 0x61, 0x6c, 0x5f, 0x34, 0x2f, 0x64, 0x65, 0x6e,
  0x73, 0x65, 0x5f, 0x31, 0x34, 0x2f, 0x42, 0x69, 0x61, 0x73, 0x41, 0x64,
  0x64, 0x2f, 0x52, 0x65, 0x61, 0x64, 0x56, 0x61, 0x72, 0x69, 0x61, 0x62,
  0x6c, 0x65, 0x4f, 0x70, 0x00, 0x00, 0x00, 0x00, 0x01, 0x00, 0x00, 0x00,
  0x01, 0x00, 0x00, 0x00, 0x00, 0x00, 0x16, 0x00, 0x1c, 0x00, 0x18, 0x00,
  0x00, 0x00, 0x14, 0x00, 0x10, 0x00, 0x0c, 0x00, 0x00, 0x00, 0x00, 0x00,
  0x08, 0x00, 0x07, 0x00, 0x16, 0x00, 0x00, 0x00, 0x00, 0x00, 0x00, 0x01,
  0x14, 0x00, 0x00, 0x00, 0x20, 0x00, 0x00, 0x00, 0x20, 0x00, 0x00, 0x00,
  0x01, 0x00, 0x00, 0x00, 0x40, 0x00, 0x00, 0x00, 0x02, 0x00, 0x00, 0x00,
  0xff, 0xff, 0xff, 0xff, 0x01, 0x00, 0x00, 0x00, 0x04, 0x00, 0x04, 0x00,
  0x04, 0x00, 0x00, 0x00, 0x20, 0x00, 0x00, 0x00, 0x73, 0x65, 0x72, 0x76,
  0x69, 0x6e, 0x67, 0x5f, 0x64, 0x65, 0x66, 0x61, 0x75, 0x6c, 0x74, 0x5f,
  0x64, 0x65, 0x6e, 0x73, 0x65, 0x5f, 0x31, 0x32, 0x5f, 0x69, 0x6e, 0x70,
  0x75, 0x74, 0x3a, 0x30, 0x00, 0x00, 0x00, 0x00, 0x02, 0x00, 0x00, 0x00,
  0x01, 0x00, 0x00, 0x00, 0x01, 0x00, 0x00, 0x00, 0x01, 0x00, 0x00, 0x00,
  0x10, 0x00, 0x00, 0x00, 0x0c, 0x00, 0x0c, 0x00, 0x0b, 0x00, 0x00, 0x00,
  0x00, 0x00, 0x04, 0x00, 0x0c, 0x00, 0x00, 0x00, 0x09, 0x00, 0x00, 0x00,
  0x00, 0x00, 0x00, 0x09
};

#endif //SINE_MODEL_H